11111111111101100000000000000000
00000000000000000000000000000000
11111111111111010000000000000000
00000000000000010000000000000000
11111111111110000000000000000000
11111111111110100000000000000000
00000000000000110000000000000000
11111111111100110000000000000000
00000000000000010000000000000000
00000000000000000000000000000000
11111111111111010000000000000000
11111111111110010000000000000000
11111111111110110000000000000000
11111111111111010000000000000000
00000000000001100000000000000000
11111111111111110000000000000000
11111111111110100000000000000000
00000000000000000000000000000000
11111111111110100000000000000000
11111111111111000000000000000000
11111111111111110000000000000000
11111111111111100000000000000000
00000000000000010000000000000000
00000000000000010000000000000000
11111111111110010000000000000000
00000000000000100000000000000000
00000000000101010000000000000000
00000000000010100000000000000000
11111111111110110000000000000000
11111111111011000000000000000000
00000000000110000000000000000000
00000000000101110000000000000000
00000000001001010000000000000000
00000000000010000000000000000000
11111111111111100000000000000000
00000000001000010000000000000000
11111111111110100000000000000000
00000000000101100000000000000000
00000000000011010000000000000000
11111111111111100000000000000000
00000000001100100000000000000000
00000000000010000000000000000000
00000000000011010000000000000000
00000000000000010000000000000000
11111111111100010000000000000000
00000000000111100000000000000000
11111111111101100000000000000000
00000000000111100000000000000000
00000000000000000000000000000000
00000000000000110000000000000000
00000000000001010000000000000000
00000000000110110000000000000000
00000000000000010000000000000000
00000000000001000000000000000000
11111111111111010000000000000000
00000000001010010000000000000000
00000000001110000000000000000000
00000000001000110000000000000000
11111111111111100000000000000000
00000000001100010000000000000000
11111111111100110000000000000000
00000000000010110000000000000000
00000000000011010000000000000000
11111111111111100000000000000000
11111111110100010000000000000000
00000000000001010000000000000000
11111111111100000000000000000000
11111111110001000000000000000000
11111111111100010000000000000000
00000000010011010000000000000000
11111111111011110000000000000000
00000000000110100000000000000000
11111111111111010000000000000000
00000000000011100000000000000000
11111111111010110000000000000000
00000000000100110000000000000000
11111111111110110000000000000000
11111111111011010000000000000000
11111111111100110000000000000000
00000000000000000000000000000000
00000000000010100000000000000000
00000000000011100000000000000000
00000000000010010000000000000000
00000000000111110000000000000000
11111111111100110000000000000000
11111111110101110000000000000000
11111111111101100000000000000000
00000000000001000000000000000000
00000000000101100000000000000000
00000000000100100000000000000000
11111111110100000000000000000000
11111111111110100000000000000000
11111111111101100000000000000000
00000000001111100000000000000000
11111111111111010000000000000000
11111111111011100000000000000000
11111111111100100000000000000000
00000000000011000000000000000000
00000000000110100000000000000000
11111111111001000000000000000000
00000000000000110000000000000000
00000000000011100000000000000000
00000000000110010000000000000000
11111111111100110000000000000000
11111111111011010000000000000000
00000000000001100000000000000000
00000000000001010000000000000000
00000000001001000000000000000000
11111111111111010000000000000000
11111111101111110000000000000000
11111111111101000000000000000000
00000000000000000000000000000000
00000000000111110000000000000000
11111111111110010000000000000000
11111111111101110000000000000000
00000000011001010000000000000000
11111111111111000000000000000000
00000000000110100000000000000000
00000000000100000000000000000000
00000000000100010000000000000000
11111111111101000000000000000000
11111111111101000000000000000000
00000000000011100000000000000000
11111111110111000000000000000000
11111111111111010000000000000000
00000000000001010000000000000000
11111111111100010000000000000000
00000000000101010000000000000000
00000000000000100000000000000000
00000000000111100000000000000000
11111111111111010000000000000000
00000000001001100000000000000000
11111111111111000000000000000000
00000000000000010000000000000000
11111111111110100000000000000000
00000000000001110000000000000000
11111111111110010000000000000000
00000000000011100000000000000000
00000000001001100000000000000000
11111111111010100000000000000000
11111111111000100000000000000000
11111111111111010000000000000000
11111111111110010000000000000000
00000000000000110000000000000000
11111111110110010000000000000000
11111111101110100000000000000000
11111111100000100000000000000000
00000000000110010000000000000000
00000000001000100000000000000000
00000000010111100000000000000000
11111111101111010000000000000000
11111111111010100000000000000000
11111111110111110000000000000000
00000000010100110000000000000000
11111111110100010000000000000000
11111111100010100000000000000000
00000000000001000000000000000000
00000000010001100000000000000000
00000000001000010000000000000000
00000000000110010000000000000000
00000000001111100000000000000000
11111111100000000000000000000000
11111111101101000000000000000000
11111111100010100000000000000000
11111111100011110000000000000000
00000000001100010000000000000000
11111111111101000000000000000000
11111111100111000000000000000000
11111111111011100000000000000000
11111111100011100000000000000000
11111111110111110000000000000000
00000000001010110000000000000000
00000000001000000000000000000000
00000000001111010000000000000000
00000000001010000000000000000000
11111111111101110000000000000000
11111111100101100000000000000000
00000000000000100000000000000000
00000000001001000000000000000000
11111111100111000000000000000000
11111111110110000000000000000000
11111111111110110000000000000000
00000000000101000000000000000000
11111111101101010000000000000000
00000000001111010000000000000000
11111111110011010000000000000000
11111111111101110000000000000000
00000000011111100000000000000000
11111111111001010000000000000000
11111111110011000000000000000000
00000000000001010000000000000000
11111111111010000000000000000000
11111111111010110000000000000000
11111111100000100000000000000000
11111111100011100000000000000000
11111111111101000000000000000000
00000000000011110000000000000000
00000000011010100000000000000000
11111111111111100000000000000000
00000000010010010000000000000000
11111111100000110000000000000000
00000000001100100000000000000000
00000000000011010000000000000000
11111111100010000000000000000000
00000000001000110000000000000000
00000000001000110000000000000000
00000000000001000000000000000000
11111111110000110000000000000000
00000000000111010000000000000000
11111111100001000000000000000000
00000000000001100000000000000000
11111111110010110000000000000000
11111111101110110000000000000000
11111111100000110000000000000000
00000000010000000000000000000000
11111111101001110000000000000000
00000000001001000000000000000000
11111111100101010000000000000000
11111111100110010000000000000000
11111111111110010000000000000000
00000000000110110000000000000000
00000000011110010000000000000000
00000000010001010000000000000000
00000000010011010000000000000000
11111111110111010000000000000000
00000000001000110000000000000000
00000000010111110000000000000000
11111111100000110000000000000000
11111111110011110000000000000000
00000000011000010000000000000000
11111111110100110000000000000000
11111111110101010000000000000000
11111111111010010000000000000000
00000000000101110000000000000000
11111111111001000000000000000000
11111111101111110000000000000000
11111111100010100000000000000000
00000000000000100000000000000000
00000000000010000000000000000000
11111111100000100000000000000000
00000000000110110000000000000000
11111111100111110000000000000000
00000000010111000000000000000000
00000000000001010000000000000000
00000000001101110000000000000000
00000000010100100000000000000000
00000000000100010000000000000000
11111111110001110000000000000000
11111111100011010000000000000000
00000000001001010000000000000000
00000000000010000000000000000000
11111111100101100000000000000000
11111111110100100000000000000000
00000000001010010000000000000000
11111111111111100000000000000000
00000000000101010000000000000000
11111111110101000000000000000000
00000000000010000000000000000000
11111111101101110000000000000000
11111111110001100000000000000000
11111111110110010000000000000000
00000000001000100000000000000000
00000000010110010000000000000000
11111111101000010000000000000000
00000000010111110000000000000000
11111111100010110000000000000000
00000000011110000000000000000000
11111111110001100000000000000000
00000000000111110000000000000000
00000000011110110000000000000000
00000000000000010000000000000000
11111111111000000000000000000000
11111111100100110000000000000000
11111111100100100000000000000000
00000000001111000000000000000000
11111111100010000000000000000000
11111111110101010000000000000000
11111111101101100000000000000000
00000000000001010000000000000000
00000000010110110000000000000000
00000000000110100000000000000000
00000000000101010000000000000000
00000000011100100000000000000000
00000000010100100000000000000000
11111111101011010000000000000000
11111111100000100000000000000000
00000000011110110000000000000000
00000000000101100000000000000000
11111111111100000000000000000000
11111111101111010000000000000000
00000000000110010000000000000000
11111111101011010000000000000000
00000000001011100000000000000000
00000000001100000000000000000000
11111111110111100000000000000000
11111111100001110000000000000000
11111111100001000000000000000000
11111111110000010000000000000000
11111111110111010000000000000000
11111111111101110000000000000000
00000000000111110000000000000000
00000000010100100000000000000000
00000000011110110000000000000000
00000000000001100000000000000000
11111111111111010000000000000000
00000000011101010000000000000000
00000000010111010000000000000000
11111111111111100000000000000000
11111111111100110000000000000000
11111111110111000000000000000000
00000000011111000000000000000000
11111111100100000000000000000000
11111111111110100000000000000000
11111111100110100000000000000000
11111111111110110000000000000000
11111111110111110000000000000000
11111111111100010000000000000000
00000000001011000000000000000000
11111111101110110000000000000000
11111111100000010000000000000000
11111111111010010000000000000000
11111111110110000000000000000000
11111111110111100000000000000000
11111111101010110000000000000000
00000000010001000000000000000000
00000000010100110000000000000000
11111111111111110000000000000000
00000000001010000000000000000000
00000000000010000000000000000000
00000000010101000000000000000000
00000000011101100000000000000000
11111111110001100000000000000000
11111111110010010000000000000000
11111111100110100000000000000000
00000000011110110000000000000000
11111111110010010000000000000000
11111111111100100000000000000000
11111111100001010000000000000000
00000000001011000000000000000000
11111111110000010000000000000000
11111111111100100000000000000000
00000000000101010000000000000000
00000000001000110000000000000000
00000000000100000000000000000000
00000000000110000000000000000000
11111111100000100000000000000000
11111111111100110000000000000000
11111111100011100000000000000000
00000000001000110000000000000000
00000000000101000000000000000000
11111111110111000000000000000000
00000000001111010000000000000000
11111111111101110000000000000000
00000000011000010000000000000000
00000000001000100000000000000000
00000000000100110000000000000000
11111111111000000000000000000000
11111111100100110000000000000000
00000000010011000000000000000000
11111111100110000000000000000000
00000000011000110000000000000000
11111111100010010000000000000000
00000000001011010000000000000000
11111111100000110000000000000000
11111111110011010000000000000000
11111111111001000000000000000000
11111111111110000000000000000000
11111111101110110000000000000000
11111111111110000000000000000000
00000000011111010000000000000000
11111111110100110000000000000000
11111111101000110000000000000000
00000000011100010000000000000000
00000000011001110000000000000000
11111111110101110000000000000000
11111111101011100000000000000000
00000000001101000000000000000000
00000000000001110000000000000000
00000000011111100000000000000000
00000000000000000000000000000000
11111111110110000000000000000000
00000000011010000000000000000000
00000000001101110000000000000000
11111111110001100000000000000000
00000000000100010000000000000000
11111111100001000000000000000000
11111111101000110000000000000000
11111111110001100000000000000000
00000000000010000000000000000000
11111111110100110000000000000000
00000000000000010000000000000000
00000000001110000000000000000000
11111111100001010000000000000000
00000000011011000000000000000000
11111111110100010000000000000000
11111111111010010000000000000000
00000000011100110000000000000000
00000000011111110000000000000000
00000000000100010000000000000000
11111111101111000000000000000000
11111111111100110000000000000000
00000000011101000000000000000000
11111111101011100000000000000000
11111111110101000000000000000000
00000000001011010000000000000000
00000000010000110000000000000000
11111111100010000000000000000000
11111111100110110000000000000000
11111111111100010000000000000000
11111111100000110000000000000000
00000000011110000000000000000000
11111111100011110000000000000000
00000000000100010000000000000000
11111111110100000000000000000000
11111111101101110000000000000000
00000000011111100000000000000000
11111111110000000000000000000000
11111111101010100000000000000000
11111111100010100000000000000000
11111111111011010000000000000000
00000000011100000000000000000000
11111111111111110000000000000000
11111111101111100000000000000000
11111111111001010000000000000000
11111111110000100000000000000000
00000000011110010000000000000000
11111111101010100000000000000000
11111111110001100000000000000000
00000000001100100000000000000000
00000000010110010000000000000000
11111111110110100000000000000000
11111111101101010000000000000000
00000000010111110000000000000000
11111111100100010000000000000000
00000000000011000000000000000000
11111111100011110000000000000000
00000000000000100000000000000000
11111111101111000000000000000000
00000000000000100000000000000000
11111111101000100000000000000000
11111111100001110000000000000000
00000000010110110000000000000000
11111111111110110000000000000000
00000000000000000000000000000000
00000000010011110000000000000000
00000000001010110000000000000000
11111111111110010000000000000000
11111111111011100000000000000000
00000000010011110000000000000000
00000000001000110000000000000000
11111111110110100000000000000000
00000000001011110000000000000000
00000000000000010000000000000000
11111111110100110000000000000000
00000000010100110000000000000000
11111111110011100000000000000000
00000000011001100000000000000000
00000000001000000000000000000000
00000000001101110000000000000000
11111111101000000000000000000000
00000000000011110000000000000000
11111111100001100000000000000000
11111111101110110000000000000000
00000000001011010000000000000000
11111111111001010000000000000000
00000000010110110000000000000000
11111111110000100000000000000000
11111111111000100000000000000000
00000000001011100000000000000000
11111111101000010000000000000000
00000000000101100000000000000000
11111111101110000000000000000000
11111111100111110000000000000000
11111111111111110000000000000000
00000000000011100000000000000000
11111111100001100000000000000000
00000000000111000000000000000000
00000000011111110000000000000000
00000000001111010000000000000000
11111111100000100000000000000000
00000000011110010000000000000000
00000000000010010000000000000000
00000000010001000000000000000000
11111111100010000000000000000000
00000000001100010000000000000000
11111111110001000000000000000000
00000000010110100000000000000000
00000000000000110000000000000000
00000000001010110000000000000000
00000000010001000000000000000000
00000000001101100000000000000000
00000000001000100000000000000000
11111111111101100000000000000000
00000000000111000000000000000000
00000000000101010000000000000000
11111111111010000000000000000000
11111111110010100000000000000000
00000000000101100000000000000000
11111111100011110000000000000000
11111111111101000000000000000000
00000000010100100000000000000000
11111111111111100000000000000000
11111111111011110000000000000000
11111111111101110000000000000000
00000000011111110000000000000000
00000000000010000000000000000000
00000000011101000000000000000000
11111111101001000000000000000000
00000000000000000000000000000000
11111111101110100000000000000000
11111111110111110000000000000000
00000000011110110000000000000000
00000000010000100000000000000000
00000000011101000000000000000000
11111111101101100000000000000000
11111111111111000000000000000000
00000000010010100000000000000000
11111111101110000000000000000000
11111111111010100000000000000000
11111111110100010000000000000000
00000000000000010000000000000000
11111111101011010000000000000000
11111111110001000000000000000000
11111111100001000000000000000000
00000000000000010000000000000000
00000000011110100000000000000000
11111111110001110000000000000000
11111111110101010000000000000000
00000000001100010000000000000000
00000000001010000000000000000000
11111111100000100000000000000000
11111111100000000000000000000000
11111111111110000000000000000000
11111111111000110000000000000000
00000000000111000000000000000000
11111111111010000000000000000000
11111111100001010000000000000000
11111111100001110000000000000000
11111111101110100000000000000000
11111111101000110000000000000000
11111111110110110000000000000000
11111111100000100000000000000000
00000000000010110000000000000000
11111111100000110000000000000000
11111111110110110000000000000000
00000000000010110000000000000000
11111111111000010000000000000000
11111111110011010000000000000000
11111111100001000000000000000000
00000000011101000000000000000000
11111111100000000000000000000000
00000000000010000000000000000000
11111111111001110000000000000000
00000000011011010000000000000000
00000000010010110000000000000000
11111111111101000000000000000000
00000000000001110000000000000000
00000000000010000000000000000000
00000000000010100000000000000000
00000000011101010000000000000000
00000000011111000000000000000000
11111111100000000000000000000000
11111111100000000000000000000000
00000000000111010000000000000000
11111111111001100000000000000000
00000000011001010000000000000000
00000000000101010000000000000000
11111111100000000000000000000000
00000000010101110000000000000000
00000000000010000000000000000000
11111111110110010000000000000000
00000000000101110000000000000000
11111111100000000000000000000000
00000000011111110000000000000000
11111111100000010000000000000000
00000000010010100000000000000000
11111111110010010000000000000000
00000000010010100000000000000000
00000000011100000000000000000000
00000000011111110000000000000000
00000000000001000000000000000000
00000000001101110000000000000000
00000000001011000000000000000000
11111111101001000000000000000000
00000000011110110000000000000000
00000000001000100000000000000000
11111111101000110000000000000000
00000000001011110000000000000000
11111111111010110000000000000000
11111111101001000000000000000000
00000000000100010000000000000000
00000000001100010000000000000000
11111111100001110000000000000000
00000000010111000000000000000000
00000000000001110000000000000000
11111111100000100000000000000000
11111111100000110000000000000000
00000000011111000000000000000000
11111111101101100000000000000000
00000000000000110000000000000000
11111111110001010000000000000000
00000000000100100000000000000000
11111111101001010000000000000000
00000000000000110000000000000000
11111111111101110000000000000000
00000000000010010000000000000000
00000000001110000000000000000000
00000000011101000000000000000000
00000000000001110000000000000000
11111111111000110000000000000000
00000000001000010000000000000000
00000000010101110000000000000000
11111111111010110000000000000000
11111111100000000000000000000000
11111111111100110000000000000000
00000000001110010000000000000000
00000000010010100000000000000000
00000000000010010000000000000000
11111111111000110000000000000000
11111111110000110000000000000000
11111111100111110000000000000000
11111111111010110000000000000000
11111111101000010000000000000000
11111111111101000000000000000000
11111111100011100000000000000000
00000000000100000000000000000000
00000000010100100000000000000000
00000000011111010000000000000000
11111111111110010000000000000000
00000000000010100000000000000000
11111111111010000000000000000000
00000000000010010000000000000000
00000000010011010000000000000000
11111111100000000000000000000000
11111111100110100000000000000000
11111111111001110000000000000000
00000000000000110000000000000000
11111111100000100000000000000000
00000000000010100000000000000000
00000000000011010000000000000000
11111111111011100000000000000000
00000000001100110000000000000000
00000000000110100000000000000000
00000000011111110000000000000000
11111111101100010000000000000000
00000000001000110000000000000000
00000000001100110000000000000000
00000000000011000000000000000000
11111111110011100000000000000000
11111111111010000000000000000000
00000000000000010000000000000000
11111111111110010000000000000000
00000000000101100000000000000000
00000000010100010000000000000000
00000000010000010000000000000000
00000000011110000000000000000000
11111111111000100000000000000000
11111111110110100000000000000000
00000000010101010000000000000000
00000000011110100000000000000000
11111111111111000000000000000000
11111111100101100000000000000000
11111111111101010000000000000000
00000000000110110000000000000000
00000000001101010000000000000000
00000000001010010000000000000000
00000000000010000000000000000000
11111111100110000000000000000000
11111111101111100000000000000000
11111111110110100000000000000000
11111111100001000000000000000000
00000000000010100000000000000000
00000000000011000000000000000000
00000000010011000000000000000000
00000000011101010000000000000000
11111111100100110000000000000000
00000000000010010000000000000000
00000000000010110000000000000000
00000000000000100000000000000000
11111111111011100000000000000000
00000000000000110000000000000000
00000000011100010000000000000000
11111111111100000000000000000000
11111111101100010000000000000000
11111111110110010000000000000000
11111111100001010000000000000000
11111111111011000000000000000000
11111111100000000000000000000000
00000000000000100000000000000000
00000000000011010000000000000000
11111111110111110000000000000000
11111111110001100000000000000000
00000000000010100000000000000000
00000000010101000000000000000000
11111111100110000000000000000000
00000000000011010000000000000000
00000000010000000000000000000000
00000000011011010000000000000000
00000000000000010000000000000000
00000000001101100000000000000000
11111111111101000000000000000000
00000000000111000000000000000000
00000000000110000000000000000000
00000000001111110000000000000000
11111111100000100000000000000000
00000000011101100000000000000000
11111111101011100000000000000000
00000000001011100000000000000000
11111111111101000000000000000000
11111111111100010000000000000000
00000000000011100000000000000000
11111111110101010000000000000000
00000000001111000000000000000000
00000000000101100000000000000000
11111111111000000000000000000000
11111111111011010000000000000000
11111111110100100000000000000000
00000000010110110000000000000000
11111111100101010000000000000000
00000000000110000000000000000000
11111111101000100000000000000000
00000000000110100000000000000000
11111111110100010000000000000000
00000000011111010000000000000000
00000000000001100000000000000000
00000000001110100000000000000000
11111111111100010000000000000000
11111111101101010000000000000000
11111111111001100000000000000000
11111111110110100000000000000000
11111111110111010000000000000000
00000000011001110000000000000000
11111111111100000000000000000000
11111111111011110000000000000000
11111111111100110000000000000000
00000000001111110000000000000000
11111111111111100000000000000000
00000000001011010000000000000000
11111111110100110000000000000000
11111111101101110000000000000000
11111111111010010000000000000000
00000000010001100000000000000000
11111111101010010000000000000000
00000000001100110000000000000000
11111111111011110000000000000000
00000000001101010000000000000000
00000000010011000000000000000000
00000000000011100000000000000000
11111111111011100000000000000000
11111111111000010000000000000000
11111111111100100000000000000000
00000000011001110000000000000000
00000000000010000000000000000000
00000000000101010000000000000000
11111111111001000000000000000000
11111111110111110000000000000000
11111111111011000000000000000000
11111111110100010000000000000000
00000000000001100000000000000000
00000000001001110000000000000000
00000000001010000000000000000000
11111111111000100000000000000000
00000000000001110000000000000000
11111111101101000000000000000000
00000000001101110000000000000000
00000000000111110000000000000000
11111111111011000000000000000000
11111111111010110000000000000000
11111111110001010000000000000000
00000000000000010000000000000000
00000000000110010000000000000000
11111111111101010000000000000000
00000000000100010000000000000000
00000000000001010000000000000000
11111111111100110000000000000000
11111111110110010000000000000000
00000000000000000000000000000000
11111111101101000000000000000000
00000000001100100000000000000000
11111111110111110000000000000000
11111111111000110000000000000000
11111111110011100000000000000000
11111111111100000000000000000000
11111111111101010000000000000000
11111111111101000000000000000000
11111111111111110000000000000000
11111111110100100000000000000000
00000000001010000000000000000000
11111111111101100000000000000000
00000000010000010000000000000000
11111111111011010000000000000000
00000000000101010000000000000000
11111111110101110000000000000000
11111111111000000000000000000000
11111111101011010000000000000000
11111111111011010000000000000000
11111111111111000000000000000000
00000000001100010000000000000000
11111111110001000000000000000000
00000000011101100000000000000000
11111111111010000000000000000000
11111111110100100000000000000000
00000000000010010000000000000000
00000000011001100000000000000000
11111111111011000000000000000000
00000000000010000000000000000000
11111111111011010000000000000000
00000000000110010000000000000000
00000000000111110000000000000000
11111111111111010000000000000000
11111111110110110000000000000000
00000000000000000000000000000000
00000000000110010000000000000000
00000000000001110000000000000000
00000000000111010000000000000000
00000000000000100000000000000000
11111111110110010000000000000000
00000000011111110000000000000000
11111111110000000000000000000000
11111111111011000000000000000000
00000000010000000000000000000000
00000000011100110000000000000000
11111111111000100000000000000000
00000000001001000000000000000000
00000000011001000000000000000000
00000000001000110000000000000000
00000000011110100000000000000000
00000000011111110000000000000000
00000000011111110000000000000000
11111111100000010000000000000000
00000000011111110000000000000000
11111111100000010000000000000000
00000000000100110000000000000000
00000000011111110000000000000000
11111111101001110000000000000000
11111111101100010000000000000000
11111111111000000000000000000000
00000000001001110000000000000000
11111111100000010000000000000000
00000000011111010000000000000000
11111111101100000000000000000000
00000000011111100000000000000000
11111111100000010000000000000000
00000000000110100000000000000000
00000000000010000000000000000000
00000000011000100000000000000000
11111111111110000000000000000000
11111111110001110000000000000000
11111111101001100000000000000000
11111111110011100000000000000000
00000000011111100000000000000000
00000000001111010000000000000000
00000000011111110000000000000000
11111111100000100000000000000000
00000000001010000000000000000000
11111111100101100000000000000000
11111111101111000000000000000000
00000000011010000000000000000000
11111111100000110000000000000000
11111111100010010000000000000000
00000000000010110000000000000000
00000000000010100000000000000000
11111111100000010000000000000000
00000000010000100000000000000000
11111111110010000000000000000000
11111111111101000000000000000000
11111111100000100000000000000000
11111111100110000000000000000000
00000000000110110000000000000000
00000000010010110000000000000000
00000000001001100000000000000000
11111111100001000000000000000000
11111111100000100000000000000000
11111111100000110000000000000000
00000000010101000000000000000000
11111111100001010000000000000000
11111111110100110000000000000000
11111111100011100000000000000000
11111111100000000000000000000000
00000000011111110000000000000000
00000000011001110000000000000000
11111111100110110000000000000000
11111111100001000000000000000000
00000000011111110000000000000000
11111111111101010000000000000000
11111111111010010000000000000000
11111111100001010000000000000000
00000000010111000000000000000000
11111111100001010000000000000000
00000000000110000000000000000000
00000000011111100000000000000000
00000000001010010000000000000000
11111111111111100000000000000000
11111111110110010000000000000000
11111111111001010000000000000000
11111111101000100000000000000000
00000000001010000000000000000000
11111111100100000000000000000000
11111111110100000000000000000000
00000000011111110000000000000000
00000000001110100000000000000000
00000000000011100000000000000000
00000000001001100000000000000000
11111111101101010000000000000000
11111111110000000000000000000000
00000000010010010000000000000000
00000000011101010000000000000000
00000000011001000000000000000000
11111111100010010000000000000000
11111111111101010000000000000000
00000000000001100000000000000000
00000000001000000000000000000000
11111111100000100000000000000000
11111111111100100000000000000000
00000000001000110000000000000000
00000000011110010000000000000000
11111111111101100000000000000000
00000000001101100000000000000000
11111111110001000000000000000000
00000000010110010000000000000000
11111111111111010000000000000000
00000000010001010000000000000000
11111111111001110000000000000000
11111111111011000000000000000000
00000000001010110000000000000000
11111111101010100000000000000000
11111111110111100000000000000000
00000000000110000000000000000000
00000000000110110000000000000000
00000000000001110000000000000000
11111111101011110000000000000000
11111111100111010000000000000000
11111111111010010000000000000000
11111111111100000000000000000000
11111111111001100000000000000000
00000000000011010000000000000000
00000000001000110000000000000000
11111111100111110000000000000000
00000000010100000000000000000000
11111111111000110000000000000000
11111111111100110000000000000000
11111111100001110000000000000000
11111111111101000000000000000000
11111111101111110000000000000000
11111111101000100000000000000000
00000000010001100000000000000000
11111111101001110000000000000000
11111111100000100000000000000000
11111111101000010000000000000000
00000000010110000000000000000000
00000000001000010000000000000000
00000000011000000000000000000000
00000000000111010000000000000000
11111111101001100000000000000000
00000000010001010000000000000000
00000000011100100000000000000000
11111111101100100000000000000000
00000000010000010000000000000000
00000000010110100000000000000000
11111111110100010000000000000000
11111111110100010000000000000000
00000000010110010000000000000000
00000000000000010000000000000000
11111111111101000000000000000000
00000000000000110000000000000000
00000000000010000000000000000000
00000000000111100000000000000000
00000000000001010000000000000000
00000000000000100000000000000000
11111111111000100000000000000000
11111111111111110000000000000000
00000000000001100000000000000000
11111111111110010000000000000000
00000000000010100000000000000000
11111111111111000000000000000000
00000000001011100000000000000000
11111111111001010000000000000000
11111111110110000000000000000000
00000000000101100000000000000000
11111111111110100000000000000000
11111111111011110000000000000000
00000000001011010000000000000000
00000000000110000000000000000000
11111111111101110000000000000000
00000000000101110000000000000000
11111111111100100000000000000000
11111111110000010000000000000000
11111111111001100000000000000000
11111111111101000000000000000000
11111111110001110000000000000000
00000000000110110000000000000000
00000000000110010000000000000000
00000000001101110000000000000000
11111111101101000000000000000000
11111111110100010000000000000000
00000000000101010000000000000000
00000000001000100000000000000000
00000000001000010000000000000000
00000000000110100000000000000000
00000000000100010000000000000000
00000000000011100000000000000000
00000000000001100000000000000000
00000000000010010000000000000000
00000000000110100000000000000000
00000000000110010000000000000000
11111111111001110000000000000000
11111111111001110000000000000000
11111111111011100000000000000000
