00000000011111000000000000000000
00000000011111010000000000000000
11111111110001110000000000000000
11111111100000100000000000000000
00000000001101010000000000000000
00000000011110110000000000000000
00000000011111110000000000000000
11111111101101010000000000000000
00000000010001000000000000000000
00000000011001100000000000000000
11111111111111100000000000000000
00000000011101000000000000000000
00000000011111000000000000000000
00000000011111110000000000000000
00000000011111000000000000000000
00000000011111010000000000000000
00000000011111100000000000000000
00000000011110110000000000000000
11111111111100000000000000000000
00000000001100000000000000000000
00000000011111010000000000000000
00000000011111100000000000000000
00000000010011100000000000000000
00000000010101010000000000000000
00000000000010110000000000000000
00000000011111100000000000000000
11111111111000100000000000000000
11111111111000100000000000000000
11111111110000000000000000000000
11111111111111010000000000000000
11111111100101110000000000000000
11111111111000110000000000000000
11111111111011110000000000000000
00000000010001010000000000000000
00000000001111110000000000000000
00000000000000100000000000000000
11111111111000000000000000000000
11111111111101100000000000000000
11111111110000100000000000000000
00000000011100010000000000000000
11111111110011000000000000000000
00000000011100000000000000000000
11111111100100110000000000000000
00000000011100000000000000000000
00000000000001110000000000000000
11111111110110000000000000000000
00000000010010010000000000000000
00000000001101010000000000000000
00000000001111100000000000000000
00000000000001100000000000000000
11111111111111100000000000000000
00000000000000000000000000000000
00000000000000000000000000000000
00000000011001000000000000000000
11111111111100000000000000000000
00000000000110100000000000000000
11111111111010000000000000000000
00000000001110000000000000000000
00000000000110100000000000000000
11111111111101100000000000000000
11111111110111110000000000000000
00000000001010010000000000000000
00000000010001100000000000000000
00000000011011010000000000000000
11111111111000110000000000000000
00000000011111110000000000000000
00000000001000100000000000000000
11111111101111100000000000000000
00000000001100010000000000000000
00000000001101010000000000000000
00000000000110110000000000000000
00000000001111100000000000000000
