00000000011111110000000000000000
00000000011111110000000000000000
00000000011111110000000000000000
00000000011111110000000000000000
00000000011111110000000000000000
00000000000101000000000000000000
00000000011111110000000000000000
11111111100000100000000000000000
11111111100000100000000000000000
11111111110010100000000000000000
00000000000011100000000000000000
00000000011111010000000000000000
11111111100000100000000000000000
11111111100000100000000000000000
00000000011111110000000000000000
11111111100000110000000000000000
11111111100000100000000000000000
00000000011111110000000000000000
11111111100000010000000000000000
11111111100000010000000000000000
11111111110001110000000000000000
11111111111000100000000000000000
00000000011111110000000000000000
00000000010100000000000000000000
