00000000001100110000000000000000
00000000001000000000000000000000
00000000010110000000000000000000
00000000001111000000000000000000
11111111110000000000000000000000
00000000010111000000000000000000
00000000000001010000000000000000
11111111110111000000000000000000
11111111110011110000000000000000
00000000010111110000000000000000
00000000011001100000000000000000
11111111111011000000000000000000
11111111111111110000000000000000
00000000000011100000000000000000
00000000000010000000000000000000
00000000000101010000000000000000
11111111110111000000000000000000
11111111101111000000000000000000
00000000001111100000000000000000
00000000001011100000000000000000
00000000000010100000000000000000
11111111110001000000000000000000
11111111100110010000000000000000
11111111111100000000000000000000
11111111111000100000000000000000
11111111110101100000000000000000
11111111110101010000000000000000
00000000001000110000000000000000
11111111111111000000000000000000
00000000000101110000000000000000
00000000011000010000000000000000
00000000001011100000000000000000
11111111111000110000000000000000
11111111111100000000000000000000
00000000010001110000000000000000
00000000001101000000000000000000
11111111111011000000000000000000
11111111111010010000000000000000
00000000010110110000000000000000
00000000000100000000000000000000
00000000010001010000000000000000
11111111111100110000000000000000
11111111111010010000000000000000
00000000010010010000000000000000
11111111111011110000000000000000
00000000000011010000000000000000
00000000000111100000000000000000
00000000000101110000000000000000
00000000000000010000000000000000
11111111111001010000000000000000
00000000001101010000000000000000
11111111111010000000000000000000
11111111101110010000000000000000
00000000001011010000000000000000
00000000001010100000000000000000
11111111110011110000000000000000
00000000000111000000000000000000
11111111111100000000000000000000
11111111111011000000000000000000
00000000001111010000000000000000
00000000001010000000000000000000
11111111100110000000000000000000
00000000001101100000000000000000
11111111111110110000000000000000
00000000000111110000000000000000
00000000000010100000000000000000
11111111110011010000000000000000
11111111110110110000000000000000
11111111111110100000000000000000
11111111101010110000000000000000
00000000000010010000000000000000
00000000001100110000000000000000
00000000000100000000000000000000
00000000000000100000000000000000
11111111111001100000000000000000
00000000001110000000000000000000
11111111110110010000000000000000
11111111111110110000000000000000
11111111111001010000000000000000
11111111111100110000000000000000
11111111110011110000000000000000
00000000000111100000000000000000
00000000000001000000000000000000
11111111110000000000000000000000
11111111110101110000000000000000
00000000001011010000000000000000
11111111111010010000000000000000
00000000000011100000000000000000
11111111111011010000000000000000
11111111111101100000000000000000
11111111110010010000000000000000
11111111110000110000000000000000
11111111110111010000000000000000
00000000001011100000000000000000
11111111111000010000000000000000
11111111111101000000000000000000
11111111101000110000000000000000
11111111111001000000000000000000
00000000000010110000000000000000
11111111111110100000000000000000
11111111110100100000000000000000
11111111111101000000000000000000
00000000000000010000000000000000
00000000000011110000000000000000
11111111110110110000000000000000
11111111100101010000000000000000
11111111110011100000000000000000
00000000000000110000000000000000
00000000001101100000000000000000
11111111111001100000000000000000
11111111101010100000000000000000
00000000000011100000000000000000
00000000010000100000000000000000
11111111110010100000000000000000
11111111110110100000000000000000
11111111101110100000000000000000
11111111111111110000000000000000
00000000010001010000000000000000
00000000001011100000000000000000
11111111111101000000000000000000
11111111100000000000000000000000
11111111110010010000000000000000
00000000000000000000000000000000
00000000000100010000000000000000
00000000001100000000000000000000
11111111110000000000000000000000
11111111111010000000000000000000
00000000000010010000000000000000
11111111101111010000000000000000
11111111100101010000000000000000
11111111100110110000000000000000
11111111110101010000000000000000
11111111111111000000000000000000
00000000010100000000000000000000
11111111110011000000000000000000
11111111101001100000000000000000
11111111111010010000000000000000
11111111110000000000000000000000
00000000000111110000000000000000
00000000010101100000000000000000
11111111110011100000000000000000
00000000000000100000000000000000
11111111110110100000000000000000
00000000000001110000000000000000
