1101011100000000
1011010000000000
1110100000000000
1010000000000000
0001100100000000
0111010100000000
1100100100000000
0011011000000000
1011011100000000
1110010000000000
0011010100000000
1011000100000000
0001010000000000
1111100000000000
1010100100000000
0001110000000000
0010110000000000
0010011000000000
1011111000000000
1110110100000000
1101001100000000
0001100100000000
0111011100000000
0100111000000000
0011011000000000
1010010000000000
0001111100000000
0000110100000000
1111110100000000
1111001100000000
1110010000000000
1011110100000000
0000001100000000
0001111100000000
0011011000000000
1101000000000000
1111000000000000
1001111100000000
1111010000000000
0000001000000000
1000101100000000
1101000000000000
1110100000000000
0011100000000000
0001001000000000
0111001100000000
1100010100000000
0111111000000000
1110001000000000
0000011000000000
0001000000000000
1000001000000000
1111010100000000
1111101000000000
0000111100000000
1011110100000000
0010000100000000
1000111100000000
0011101100000000
1111010000000000
0111111000000000
1111110100000000
0011110100000000
0011101000000000
1011100100000000
1111110000000000
0010101000000000
0010100100000000
1101000000000000
0000101100000000
1101111100000000
0011001000000000
0010101100000000
0000010000000000
0000000000000000
0000111100000000
1101001000000000
1111000000000000
0001011100000000
1110111000000000
0000100000000000
1110001000000000
0000110100000000
0100001000000000
0100110100000000
1111101000000000
0010001000000000
0110011100000000
0010100000000000
0011001000000000
0010011100000000
0100100000000000
1111011000000000
0001011000000000
1111000000000000
0001100000000000
0000000100000000
0111111100000000
1111011100000000
1101000000000000
1100100100000000
1110010100000000
0010010000000000
1111000000000000
0101101000000000
0000010000000000
0000110000000000
1110111100000000
0011101100000000
0001011100000000
1101111000000000
0001010000000000
1010110000000000
0001001100000000
0010100100000000
0111100100000000
0111010000000000
0110111100000000
1111011000000000
1000000100000000
0010100100000000
0010110000000000
0000010000000000
0010001000000000
1111111100000000
0001010000000000
1111010100000000
0000001000000000
0111111100000000
1000000100000000
0010110000000000
0001000000000000
0001010100000000
0111111000000000
0100001000000000
0111110100000000
0111111000000000
0100111000000000
0001100100000000
0010110100000000
0100100000000000
0000001100000000
0111101100000000
0010100000000000
0110100100000000
1100001000000000
0001100100000000
1001011100000000
0010110000000000
0010000100000000
0000110100000000
1100110100000000
0111011100000000
0111111000000000
0111111000000000
0011010100000000
0000000000000000
1010100000000000
1110000000000000
1110010100000000
1101111100000000
1110111000000000
0000101100000000
0000000100000000
0001101100000000
1100001000000000
1111101000000000
1100011100000000
0100011100000000
0010111000000000
0001010100000000
1111100100000000
1111101000000000
1100100100000000
0111111100000000
0001111000000000
1101011100000000
1111101000000000
1110101100000000
1110101100000000
1101101000000000
0101011100000000
1111000000000000
0010001000000000
0010110000000000
1000001000000000
1001000000000000
1110001000000000
0011110100000000
1110111100000000
0111001100000000
0000000100000000
1101100100000000
0001001100000000
1101010100000000
0100110000000000
1100000000000000
0011000000000000
1111001100000000
0000101100000000
0100100100000000
0100011100000000
0101110100000000
0110100000000000
0001011100000000
0000101000000000
0011111100000000
0010001000000000
1111100100000000
0111111000000000
0011100100000000
0000001100000000
0111111100000000
0000111100000000
1011100100000000
1000001000000000
1110011100000000
0111110100000000
0000011100000000
0000011100000000
0010011100000000
1110111000000000
1110010100000000
0111111000000000
0101111100000000
1000000100000000
1010000100000000
0010010000000000
1111110000000000
0111110100000000
0010010100000000
0100100000000000
0111111100000000
1110001100000000
0100010100000000
0101010000000000
0110001100000000
0010011100000000
0111111100000000
0010100000000000
1000000100000000
1010010000000000
0000000000000000
0111111100000000
1111001000000000
0100011000000000
0010011100000000
1001111000000000
0001100100000000
0111111100000000
1100101000000000
0011000000000000
0010111100000000
0001001100000000
1110101100000000
0101110100000000
0011110100000000
0111111100000000
0000001100000000
1100001000000000
0111111100000000
1011010100000000
0001100000000000
1111110100000000
1110111000000000
0110011000000000
0010100000000000
1111101000000000
1111001000000000
1101110000000000
1101011100000000
0010111000000000
0101100100000000
1110111100000000
0001110100000000
1100100100000000
0000011100000000
1111011000000000
1100010100000000
0001011000000000
1110101100000000
0001100100000000
0001001000000000
1100011000000000
0001100100000000
0111111000000000
1010110000000000
0111111100000000
