0010011000000000
1111101000000000
0111111100000000
0111111100000000
0111111100000000
1101010100000000
1000000100000000
0100111000000000
0111111100000000
0000010100000000
0111111100000000
0111101100000000
0111111100000000
0111111100000000
1000000000000000
1011010000000000
1000001000000000
0001110000000000
0111111100000000
0111110100000000
1110001000000000
0111111100000000
1010011100000000
1110110000000000
