01000010000110000000000000000000
11000000110000000000000000000000
01000010111111100000000000000000
01000010111111100000000000000000
01000010111111100000000000000000
11000010001011000000000000000000
11000010111111100000000000000000
01000010100111000000000000000000
01000010111111100000000000000000
01000000101000000000000000000000
01000010111111100000000000000000
01000010111101100000000000000000
01000010111111100000000000000000
01000010111111100000000000000000
11000011000000000000000000000000
11000010100110000000000000000000
11000010111111000000000000000000
01000001111000000000000000000000
01000010111111100000000000000000
01000010111110100000000000000000
11000001111100000000000000000000
01000010111111100000000000000000
11000010101100100000000000000000
11000001101000000000000000000000
