0011001100000000
0010000000000000
0101100000000000
0011110000000000
1100000000000000
0101110000000000
0000010100000000
1101110000000000
1100111100000000
0101111100000000
0110011000000000
1110110000000000
1111111100000000
0000111000000000
0000100000000000
0001010100000000
1101110000000000
1011110000000000
0011111000000000
0010111000000000
0000101000000000
1100010000000000
1001100100000000
1111000000000000
1110001000000000
1101011000000000
1101010100000000
0010001100000000
1111110000000000
0001011100000000
0110000100000000
0010111000000000
1110001100000000
1111000000000000
0100011100000000
0011010000000000
1110110000000000
1110100100000000
0101101100000000
0001000000000000
0100010100000000
1111001100000000
1110100100000000
0100100100000000
1110111100000000
0000110100000000
0001111000000000
0001011100000000
0000000100000000
1110010100000000
0011010100000000
1110100000000000
1011100100000000
0010110100000000
0010101000000000
1100111100000000
0001110000000000
1111000000000000
1110110000000000
0011110100000000
0010100000000000
1001100000000000
0011011000000000
1111101100000000
0001111100000000
0000101000000000
1100110100000000
1101101100000000
1111101000000000
1010101100000000
0000100100000000
0011001100000000
0001000000000000
0000001000000000
1110011000000000
0011100000000000
1101100100000000
1111101100000000
1110010100000000
1111001100000000
1100111100000000
0001111000000000
0000010000000000
1100000000000000
1101011100000000
0010110100000000
1110100100000000
0000111000000000
1110110100000000
1111011000000000
1100100100000000
1100001100000000
1101110100000000
0010111000000000
1110000100000000
1111010000000000
1010001100000000
1110010000000000
0000101100000000
1111101000000000
1101001000000000
1111010000000000
0000000100000000
0000111100000000
1101101100000000
1001010100000000
1100111000000000
0000001100000000
0011011000000000
1110011000000000
1010101000000000
0000111000000000
0100001000000000
1100101000000000
1101101000000000
1011101000000000
1111111100000000
0100010100000000
0010111000000000
1111010000000000
1000000000000000
1100100100000000
0000000000000000
0001000100000000
0011000000000000
1100000000000000
1110100000000000
0000100100000000
1011110100000000
1001010100000000
1001101100000000
1101010100000000
1111110000000000
0101000000000000
1100110000000000
1010011000000000
1110100100000000
1100000000000000
0001111100000000
0101011000000000
1100111000000000
0000001000000000
1101101000000000
0000011100000000
