0111110000000000
0111110100000000
1100011100000000
1000001000000000
0011010100000000
0111101100000000
0111111100000000
1011010100000000
0100010000000000
0110011000000000
1111111000000000
0111010000000000
0111110000000000
0111111100000000
0111110000000000
0111110100000000
0111111000000000
0111101100000000
1111000000000000
0011000000000000
0111110100000000
0111111000000000
0100111000000000
0101010100000000
0000101100000000
0111111000000000
1110001000000000
1110001000000000
1100000000000000
1111110100000000
1001011100000000
1110001100000000
1110111100000000
0100010100000000
0011111100000000
0000001000000000
1110000000000000
1111011000000000
1100001000000000
0111000100000000
1100110000000000
0111000000000000
1001001100000000
0111000000000000
0000011100000000
1101100000000000
0100100100000000
0011010100000000
0011111000000000
0000011000000000
1111111000000000
0000000000000000
0000000000000000
0110010000000000
1111000000000000
0001101000000000
1110100000000000
0011100000000000
0001101000000000
1111011000000000
1101111100000000
0010100100000000
0100011000000000
0110110100000000
1110001100000000
0111111100000000
0010001000000000
1011111000000000
0011000100000000
0011010100000000
0001101100000000
0011111000000000
