01000010111110000000000000000000
01000010111110100000000000000000
11000010011001000000000000000000
11000010111111000000000000000000
01000010010101000000000000000000
01000010111101100000000000000000
01000010111111100000000000000000
11000010100101100000000000000000
01000010100010000000000000000000
01000010110011000000000000000000
11000000000000000000000000000000
01000010111010000000000000000000
01000010111110000000000000000000
01000010111111100000000000000000
01000010111110000000000000000000
01000010111110100000000000000000
01000010111111000000000000000000
01000010111101100000000000000000
11000001100000000000000000000000
01000010010000000000000000000000
01000010111110100000000000000000
01000010111111000000000000000000
01000010100111000000000000000000
01000010101010100000000000000000
01000001001100000000000000000000
01000010111111000000000000000000
11000001111100000000000000000000
11000001111100000000000000000000
11000010100000000000000000000000
11000000010000000000000000000000
11000010110100100000000000000000
11000001111010000000000000000000
11000001100010000000000000000000
01000010100010100000000000000000
01000010011111000000000000000000
01000000000000000000000000000000
11000010000000000000000000000000
11000001001000000000000000000000
11000010011110000000000000000000
01000010111000100000000000000000
11000010010100000000000000000000
01000010111000000000000000000000
11000010110110100000000000000000
01000010111000000000000000000000
01000000111000000000000000000000
11000010001000000000000000000000
01000010100100100000000000000000
01000010010101000000000000000000
01000010011110000000000000000000
01000000110000000000000000000000
11000000000000000000000000000000
00000000000000000000000000000000
00000000000000000000000000000000
01000010110010000000000000000000
11000001100000000000000000000000
01000001110100000000000000000000
11000001110000000000000000000000
01000010011000000000000000000000
01000001110100000000000000000000
11000001001000000000000000000000
11000010000001000000000000000000
01000010001001000000000000000000
01000010100011000000000000000000
01000010110110100000000000000000
11000001111010000000000000000000
01000010111111100000000000000000
01000010000010000000000000000000
11000010100001000000000000000000
01000010010001000000000000000000
01000010010101000000000000000000
01000001110110000000000000000000
01000010011110000000000000000000
