01000010111111100000000000000000
01000010111111100000000000000000
01000010111111100000000000000000
01000010111111100000000000000000
01000010111111100000000000000000
01000001101000000000000000000000
01000010111111100000000000000000
11000010111111000000000000000000
11000010111111000000000000000000
11000010010110000000000000000000
01000001011000000000000000000000
01000010111110100000000000000000
11000010111111000000000000000000
11000010111111000000000000000000
01000010111111100000000000000000
11000010111110100000000000000000
11000010111111000000000000000000
01000010111111100000000000000000
11000010111111100000000000000000
11000010111111100000000000000000
11000010011001000000000000000000
11000001111100000000000000000000
01000010111111100000000000000000
01000010101000000000000000000000
