0111111100000000
0111111100000000
0111111100000000
0111111100000000
0111111100000000
0001010000000000
0111111100000000
1000001000000000
1000001000000000
1100101000000000
0000111000000000
0111110100000000
1000001000000000
1000001000000000
0111111100000000
1000001100000000
1000001000000000
0111111100000000
1000000100000000
1000000100000000
1100011100000000
1110001000000000
0111111100000000
0101000000000000
