11010111
10110100
11101000
10100000
00011001
01110101
11001001
00110110
10110111
11100100
00110101
10110001
00010100
11111000
10101001
00011100
00101100
00100110
10111110
11101101
11010011
00011001
01110111
01001110
00110110
10100100
00011111
00001101
11111101
11110011
11100100
10111101
00000011
00011111
00110110
11010000
11110000
10011111
11110100
00000010
10001011
11010000
11101000
00111000
00010010
01110011
11000101
01111110
11100010
00000110
00010000
10000010
11110101
11111010
00001111
10111101
00100001
10001111
00111011
11110100
01111110
11111101
00111101
00111010
10111001
11111100
00101010
00101001
11010000
00001011
11011111
00110010
00101011
00000100
00000000
00001111
11010010
11110000
00010111
11101110
00001000
11100010
00001101
01000010
01001101
11111010
00100010
01100111
00101000
00110010
00100111
01001000
11110110
00010110
11110000
00011000
00000001
01111111
11110111
11010000
11001001
11100101
00100100
11110000
01011010
00000100
00001100
11101111
00111011
00010111
11011110
00010100
10101100
00010011
00101001
01111001
01110100
01101111
11110110
10000001
00101001
00101100
00000100
00100010
11111111
00010100
11110101
00000010
01111111
10000001
00101100
00010000
00010101
01111110
01000010
01111101
01111110
01001110
00011001
00101101
01001000
00000011
01111011
00101000
01101001
11000010
00011001
10010111
00101100
00100001
00001101
11001101
01110111
01111110
01111110
00110101
00000000
10101000
11100000
11100101
11011111
11101110
00001011
00000001
00011011
11000010
11111010
11000111
01000111
00101110
00010101
11111001
11111010
11001001
01111111
00011110
11010111
11111010
11101011
11101011
11011010
01010111
11110000
00100010
00101100
10000010
10010000
11100010
00111101
11101111
01110011
00000001
11011001
00010011
11010101
01001100
11000000
00110000
11110011
00001011
01001001
01000111
01011101
01101000
00010111
00001010
00111111
00100010
11111001
01111110
00111001
00000011
01111111
00001111
10111001
10000010
11100111
01111101
00000111
00000111
00100111
11101110
11100101
01111110
01011111
10000001
10100001
00100100
11111100
01111101
00100101
01001000
01111111
11100011
01000101
01010100
01100011
00100111
01111111
00101000
10000001
10100100
00000000
01111111
11110010
01000110
00100111
10011110
00011001
01111111
11001010
00110000
00101111
00010011
11101011
01011101
00111101
01111111
00000011
11000010
01111111
10110101
00011000
11111101
11101110
01100110
00101000
11111010
11110010
11011100
11010111
00101110
01011001
11101111
00011101
11001001
00000111
11110110
11000101
00010110
11101011
00011001
00010010
11000110
00011001
01111110
10101100
01111111
