11110110
00000000
11111101
00000001
11111000
11111010
00000011
11110011
00000001
00000000
11111101
11111001
11111011
11111101
00000110
11111111
11111010
00000000
11111010
11111100
11111111
11111110
00000001
00000001
11111001
00000010
00010101
00001010
11111011
11101100
00011000
00010111
00100101
00001000
11111110
00100001
11111010
00010110
00001101
11111110
00110010
00001000
00001101
00000001
11110001
00011110
11110110
00011110
00000000
00000011
00000101
00011011
00000001
00000100
11111101
00101001
00111000
00100011
11111110
00110001
11110011
00001011
00001101
11111110
11010001
00000101
11110000
11000100
11110001
01001101
11101111
00011010
11111101
00001110
11101011
00010011
11111011
11101101
11110011
00000000
00001010
00001110
00001001
00011111
11110011
11010111
11110110
00000100
00010110
00010010
11010000
11111010
11110110
00111110
11111101
11101110
11110010
00001100
00011010
11100100
00000011
00001110
00011001
11110011
11101101
00000110
00000101
00100100
11111101
10111111
11110100
00000000
00011111
11111001
11110111
01100101
11111100
00011010
00010000
00010001
11110100
11110100
00001110
11011100
11111101
00000101
11110001
00010101
00000010
00011110
11111101
00100110
11111100
00000001
11111010
00000111
11111001
00001110
00100110
11101010
11100010
11111101
11111001
00000011
11011001
10111010
10000010
00011001
00100010
01011110
10111101
11101010
11011111
01010011
11010001
10001010
00000100
01000110
00100001
00011001
00111110
10000000
10110100
10001010
10001111
00110001
11110100
10011100
11101110
10001110
11011111
00101011
00100000
00111101
00101000
11110111
10010110
00000010
00100100
10011100
11011000
11111011
00010100
10110101
00111101
11001101
11110111
01111110
11100101
11001100
00000101
11101000
11101011
10000010
10001110
11110100
00001111
01101010
11111110
01001001
10000011
00110010
00001101
10001000
00100011
00100011
00000100
11000011
00011101
10000100
00000110
11001011
10111011
10000011
01000000
10100111
00100100
10010101
10011001
11111001
00011011
01111001
01000101
01001101
11011101
00100011
01011111
10000011
11001111
01100001
11010011
11010101
11101001
00010111
11100100
10111111
10001010
00000010
00001000
10000010
00011011
10011111
01011100
00000101
00110111
01010010
00010001
11000111
10001101
00100101
00001000
10010110
11010010
00101001
11111110
00010101
11010100
00001000
10110111
11000110
11011001
00100010
01011001
10100001
01011111
10001011
01111000
11000110
00011111
01111011
00000001
11100000
10010011
10010010
00111100
10001000
11010101
10110110
00000101
01011011
00011010
00010101
01110010
01010010
10101101
10000010
01111011
00010110
11110000
10111101
00011001
10101101
00101110
00110000
11011110
10000111
10000100
11000001
11011101
11110111
00011111
01010010
01111011
00000110
11111101
01110101
01011101
11111110
11110011
11011100
01111100
10010000
11111010
10011010
11111011
11011111
11110001
00101100
10111011
10000001
11101001
11011000
11011110
10101011
01000100
01010011
11111111
00101000
00001000
01010100
01110110
11000110
11001001
10011010
01111011
11001001
11110010
10000101
00101100
11000001
11110010
00010101
00100011
00010000
00011000
10000010
11110011
10001110
00100011
00010100
11011100
00111101
11110111
01100001
00100010
00010011
11100000
10010011
01001100
10011000
01100011
10001001
00101101
10000011
11001101
11100100
11111000
10111011
11111000
01111101
11010011
10100011
01110001
01100111
11010111
10101110
00110100
00000111
01111110
00000000
11011000
01101000
00110111
11000110
00010001
10000100
10100011
11000110
00001000
11010011
00000001
00111000
10000101
01101100
11010001
11101001
01110011
01111111
00010001
10111100
11110011
01110100
10101110
11010100
00101101
01000011
10001000
10011011
11110001
10000011
01111000
10001111
00010001
11010000
10110111
01111110
11000000
10101010
10001010
11101101
01110000
11111111
10111110
11100101
11000010
01111001
10101010
11000110
00110010
01011001
11011010
10110101
01011111
10010001
00001100
10001111
00000010
10111100
00000010
10100010
10000111
01011011
11111011
00000000
01001111
00101011
11111001
11101110
01001111
00100011
11011010
00101111
00000001
11010011
01010011
11001110
01100110
00100000
00110111
10100000
00001111
10000110
10111011
00101101
11100101
01011011
11000010
11100010
00101110
10100001
00010110
10111000
10011111
11111111
00001110
10000110
00011100
01111111
00111101
10000010
01111001
00001001
01000100
10001000
00110001
11000100
01011010
00000011
00101011
01000100
00110110
00100010
11110110
00011100
00010101
11101000
11001010
00010110
10001111
11110100
01010010
11111110
11101111
11110111
01111111
00001000
01110100
10100100
00000000
10111010
11011111
01111011
01000010
01110100
10110110
11111100
01001010
10111000
11101010
11010001
00000001
10101101
11000100
10000100
00000001
01111010
11000111
11010101
00110001
00101000
10000010
10000000
11111000
11100011
00011100
11101000
10000101
10000111
10111010
10100011
11011011
10000010
00001011
10000011
11011011
00001011
11100001
11001101
10000100
01110100
10000000
00001000
11100111
01101101
01001011
11110100
00000111
00001000
00001010
01110101
01111100
10000000
10000000
00011101
11100110
01100101
00010101
10000000
01010111
00001000
11011001
00010111
10000000
01111111
10000001
01001010
11001001
01001010
01110000
01111111
00000100
00110111
00101100
10100100
01111011
00100010
10100011
00101111
11101011
10100100
00010001
00110001
10000111
01011100
00000111
10000010
10000011
01111100
10110110
00000011
11000101
00010010
10100101
00000011
11110111
00001001
00111000
01110100
00000111
11100011
00100001
01010111
11101011
10000000
11110011
00111001
01001010
00001001
11100011
11000011
10011111
11101011
10100001
11110100
10001110
00010000
01010010
01111101
11111001
00001010
11101000
00001001
01001101
10000000
10011010
11100111
00000011
10000010
00001010
00001101
11101110
00110011
00011010
01111111
10110001
00100011
00110011
00001100
11001110
11101000
00000001
11111001
00010110
01010001
01000001
01111000
11100010
11011010
01010101
01111010
11111100
10010110
11110101
00011011
00110101
00101001
00001000
10011000
10111110
11011010
10000100
00001010
00001100
01001100
01110101
10010011
00001001
00001011
00000010
11101110
00000011
01110001
11110000
10110001
11011001
10000101
11101100
10000000
00000010
00001101
11011111
11000110
00001010
01010100
10011000
00001101
01000000
01101101
00000001
00110110
11110100
00011100
00011000
00111111
10000010
01110110
10101110
00101110
11110100
11110001
00001110
11010101
00111100
00010110
11100000
11101101
11010010
01011011
10010101
00011000
10100010
00011010
11010001
01111101
00000110
00111010
11110001
10110101
11100110
11011010
11011101
01100111
11110000
11101111
11110011
00111111
11111110
00101101
11010011
10110111
11101001
01000110
10101001
00110011
11101111
00110101
01001100
00001110
11101110
11100001
11110010
01100111
00001000
00010101
11100100
11011111
11101100
11010001
00000110
00100111
00101000
11100010
00000111
10110100
00110111
00011111
11101100
11101011
11000101
00000001
00011001
11110101
00010001
00000101
11110011
11011001
00000000
10110100
00110010
11011111
11100011
11001110
11110000
11110101
11110100
11111111
11010010
00101000
11110110
01000001
11101101
00010101
11010111
11100000
10101101
11101101
11111100
00110001
11000100
01110110
11101000
11010010
00001001
01100110
11101100
00001000
11101101
00011001
00011111
11111101
11011011
00000000
00011001
00000111
00011101
00000010
11011001
01111111
11000000
11101100
01000000
01110011
11100010
00100100
01100100
00100011
01111010
01111111
01111111
10000001
01111111
10000001
00010011
01111111
10100111
10110001
11100000
00100111
10000001
01111101
10110000
01111110
10000001
00011010
00001000
01100010
11111000
11000111
10100110
11001110
01111110
00111101
01111111
10000010
00101000
10010110
10111100
01101000
10000011
10001001
00001011
00001010
10000001
01000010
11001000
11110100
10000010
10011000
00011011
01001011
00100110
10000100
10000010
10000011
01010100
10000101
11010011
10001110
10000000
01111111
01100111
10011011
10000100
01111111
11110101
11101001
10000101
01011100
10000101
00011000
01111110
00101001
11111110
11011001
11100101
10100010
00101000
10010000
11010000
01111111
00111010
00001110
00100110
10110101
11000000
01001001
01110101
01100100
10001001
11110101
00000110
00100000
10000010
11110010
00100011
01111001
11110110
00110110
11000100
01011001
11111101
01000101
11100111
11101100
00101011
10101010
11011110
00011000
00011011
00000111
10101111
10011101
11101001
11110000
11100110
00001101
00100011
10011111
01010000
11100011
11110011
10000111
11110100
10111111
10100010
01000110
10100111
10000010
10100001
01011000
00100001
01100000
00011101
10100110
01000101
01110010
10110010
01000001
01011010
11010001
11010001
01011001
00000001
11110100
00000011
00001000
00011110
00000101
00000010
11100010
11111111
00000110
11111001
00001010
11111100
00101110
11100101
11011000
00010110
11111010
11101111
00101101
00011000
11110111
00010111
11110010
11000001
11100110
11110100
11000111
00011011
00011001
00110111
10110100
11010001
00010101
00100010
00100001
00011010
00010001
00001110
00000110
00001001
00011010
00011001
11100111
11100111
11101110
