00110011
00100000
01011000
00111100
11000000
01011100
00000101
11011100
11001111
01011111
01100110
11101100
11111111
00001110
00001000
00010101
11011100
10111100
00111110
00101110
00001010
11000100
10011001
11110000
11100010
11010110
11010101
00100011
11111100
00010111
01100001
00101110
11100011
11110000
01000111
00110100
11101100
11101001
01011011
00010000
01000101
11110011
11101001
01001001
11101111
00001101
00011110
00010111
00000001
11100101
00110101
11101000
10111001
00101101
00101010
11001111
00011100
11110000
11101100
00111101
00101000
10011000
00110110
11111011
00011111
00001010
11001101
11011011
11111010
10101011
00001001
00110011
00010000
00000010
11100110
00111000
11011001
11111011
11100101
11110011
11001111
00011110
00000100
11000000
11010111
00101101
11101001
00001110
11101101
11110110
11001001
11000011
11011101
00101110
11100001
11110100
10100011
11100100
00001011
11111010
11010010
11110100
00000001
00001111
11011011
10010101
11001110
00000011
00110110
11100110
10101010
00001110
01000010
11001010
11011010
10111010
11111111
01000101
00101110
11110100
10000000
11001001
00000000
00010001
00110000
11000000
11101000
00001001
10111101
10010101
10011011
11010101
11111100
01010000
11001100
10100110
11101001
11000000
00011111
01010110
11001110
00000010
11011010
00000111
