01111100
01111101
11000111
10000010
00110101
01111011
01111111
10110101
01000100
01100110
11111110
01110100
01111100
01111111
01111100
01111101
01111110
01111011
11110000
00110000
01111101
01111110
01001110
01010101
00001011
01111110
11100010
11100010
11000000
11111101
10010111
11100011
11101111
01000101
00111111
00000010
11100000
11110110
11000010
01110001
11001100
01110000
10010011
01110000
00000111
11011000
01001001
00110101
00111110
00000110
11111110
00000000
00000000
01100100
11110000
00011010
11101000
00111000
00011010
11110110
11011111
00101001
01000110
01101101
11100011
01111111
00100010
10111110
00110001
00110101
00011011
00111110