memory_initialization_radix=2;
memory_initialization_vector=11111111110101110000000000000000, 11111111101101000000000000000000, 11111111111010000000000000000000, 11111111101000000000000000000000, 00000000000110010000000000000000, 00000000011101010000000000000000, 11111111110010010000000000000000, 00000000001101100000000000000000, 11111111101101110000000000000000, 11111111111001000000000000000000, 00000000001101010000000000000000, 11111111101100010000000000000000, 00000000000101000000000000000000, 11111111111110000000000000000000, 11111111101010010000000000000000, 00000000000111000000000000000000, 00000000001011000000000000000000, 00000000001001100000000000000000, 11111111101111100000000000000000, 11111111111011010000000000000000, 11111111110100110000000000000000, 00000000000110010000000000000000, 00000000011101110000000000000000, 00000000010011100000000000000000, 00000000001101100000000000000000, 11111111101001000000000000000000, 00000000000111110000000000000000, 00000000000011010000000000000000, 11111111111111010000000000000000, 11111111111100110000000000000000, 11111111111001000000000000000000, 11111111101111010000000000000000, 00000000000000110000000000000000, 00000000000111110000000000000000, 00000000001101100000000000000000, 11111111110100000000000000000000, 11111111111100000000000000000000, 11111111100111110000000000000000, 11111111111101000000000000000000, 00000000000000100000000000000000, 11111111100010110000000000000000, 11111111110100000000000000000000, 11111111111010000000000000000000, 00000000001110000000000000000000, 00000000000100100000000000000000, 00000000011100110000000000000000, 11111111110001010000000000000000, 00000000011111100000000000000000, 11111111111000100000000000000000, 00000000000001100000000000000000, 00000000000100000000000000000000, 11111111100000100000000000000000, 11111111111101010000000000000000, 11111111111110100000000000000000, 00000000000011110000000000000000, 11111111101111010000000000000000, 00000000001000010000000000000000, 11111111100011110000000000000000, 00000000001110110000000000000000, 11111111111101000000000000000000, 00000000011111100000000000000000, 11111111111111010000000000000000, 00000000001111010000000000000000, 00000000001110100000000000000000, 11111111101110010000000000000000, 11111111111111000000000000000000, 00000000001010100000000000000000, 00000000001010010000000000000000, 11111111110100000000000000000000, 00000000000010110000000000000000, 11111111110111110000000000000000, 00000000001100100000000000000000, 00000000001010110000000000000000, 00000000000001000000000000000000, 00000000000000000000000000000000, 00000000000011110000000000000000, 11111111110100100000000000000000, 11111111111100000000000000000000, 00000000000101110000000000000000, 11111111111011100000000000000000, 00000000000010000000000000000000, 11111111111000100000000000000000, 00000000000011010000000000000000, 00000000010000100000000000000000, 00000000010011010000000000000000, 11111111111110100000000000000000, 00000000001000100000000000000000, 00000000011001110000000000000000, 00000000001010000000000000000000, 00000000001100100000000000000000, 00000000001001110000000000000000, 00000000010010000000000000000000, 11111111111101100000000000000000, 00000000000101100000000000000000, 11111111111100000000000000000000, 00000000000110000000000000000000, 00000000000000010000000000000000, 00000000011111110000000000000000, 11111111111101110000000000000000, 11111111110100000000000000000000, 11111111110010010000000000000000, 11111111111001010000000000000000, 00000000001001000000000000000000, 11111111111100000000000000000000, 00000000010110100000000000000000, 00000000000001000000000000000000, 00000000000011000000000000000000, 11111111111011110000000000000000, 00000000001110110000000000000000, 00000000000101110000000000000000, 11111111110111100000000000000000, 00000000000101000000000000000000, 11111111101011000000000000000000, 00000000000100110000000000000000, 00000000001010010000000000000000, 00000000011110010000000000000000, 00000000011101000000000000000000, 00000000011011110000000000000000, 11111111111101100000000000000000, 11111111100000010000000000000000, 00000000001010010000000000000000, 00000000001011000000000000000000, 00000000000001000000000000000000, 00000000001000100000000000000000, 11111111111111110000000000000000, 00000000000101000000000000000000, 11111111111101010000000000000000, 00000000000000100000000000000000, 00000000011111110000000000000000, 11111111100000010000000000000000, 00000000001011000000000000000000, 00000000000100000000000000000000, 00000000000101010000000000000000, 00000000011111100000000000000000, 00000000010000100000000000000000, 00000000011111010000000000000000, 00000000011111100000000000000000, 00000000010011100000000000000000, 00000000000110010000000000000000, 00000000001011010000000000000000, 00000000010010000000000000000000, 00000000000000110000000000000000, 00000000011110110000000000000000, 00000000001010000000000000000000, 00000000011010010000000000000000, 11111111110000100000000000000000, 00000000000110010000000000000000, 11111111100101110000000000000000, 00000000001011000000000000000000, 00000000001000010000000000000000, 00000000000011010000000000000000, 11111111110011010000000000000000, 00000000011101110000000000000000, 00000000011111100000000000000000, 00000000011111100000000000000000, 00000000001101010000000000000000, 00000000000000000000000000000000, 11111111101010000000000000000000, 11111111111000000000000000000000, 11111111111001010000000000000000, 11111111110111110000000000000000, 11111111111011100000000000000000, 00000000000010110000000000000000, 00000000000000010000000000000000, 00000000000110110000000000000000, 11111111110000100000000000000000, 11111111111110100000000000000000, 11111111110001110000000000000000, 00000000010001110000000000000000, 00000000001011100000000000000000, 00000000000101010000000000000000, 11111111111110010000000000000000, 11111111111110100000000000000000, 11111111110010010000000000000000, 00000000011111110000000000000000, 00000000000111100000000000000000, 11111111110101110000000000000000, 11111111111110100000000000000000, 11111111111010110000000000000000, 11111111111010110000000000000000, 11111111110110100000000000000000, 00000000010101110000000000000000, 11111111111100000000000000000000, 00000000001000100000000000000000, 00000000001011000000000000000000, 11111111100000100000000000000000, 11111111100100000000000000000000, 11111111111000100000000000000000, 00000000001111010000000000000000, 11111111111011110000000000000000, 00000000011100110000000000000000, 00000000000000010000000000000000, 11111111110110010000000000000000, 00000000000100110000000000000000, 11111111110101010000000000000000, 00000000010011000000000000000000, 11111111110000000000000000000000, 00000000001100000000000000000000, 11111111111100110000000000000000, 00000000000010110000000000000000, 00000000010010010000000000000000, 00000000010001110000000000000000, 00000000010111010000000000000000, 00000000011010000000000000000000, 00000000000101110000000000000000, 00000000000010100000000000000000, 00000000001111110000000000000000, 00000000001000100000000000000000, 11111111111110010000000000000000, 00000000011111100000000000000000, 00000000001110010000000000000000, 00000000000000110000000000000000, 00000000011111110000000000000000, 00000000000011110000000000000000, 11111111101110010000000000000000, 11111111100000100000000000000000, 11111111111001110000000000000000, 00000000011111010000000000000000, 00000000000001110000000000000000, 00000000000001110000000000000000, 00000000001001110000000000000000, 11111111111011100000000000000000, 11111111111001010000000000000000, 00000000011111100000000000000000, 00000000010111110000000000000000, 11111111100000010000000000000000, 11111111101000010000000000000000, 00000000001001000000000000000000, 11111111111111000000000000000000, 00000000011111010000000000000000, 00000000001001010000000000000000, 00000000010010000000000000000000, 00000000011111110000000000000000, 11111111111000110000000000000000, 00000000010001010000000000000000, 00000000010101000000000000000000, 00000000011000110000000000000000, 00000000001001110000000000000000, 00000000011111110000000000000000, 00000000001010000000000000000000, 11111111100000010000000000000000, 11111111101001000000000000000000, 00000000000000000000000000000000, 00000000011111110000000000000000, 11111111111100100000000000000000, 00000000010001100000000000000000, 00000000001001110000000000000000, 11111111100111100000000000000000, 00000000000110010000000000000000, 00000000011111110000000000000000, 11111111110010100000000000000000, 00000000001100000000000000000000, 00000000001011110000000000000000, 00000000000100110000000000000000, 11111111111010110000000000000000, 00000000010111010000000000000000, 00000000001111010000000000000000, 00000000011111110000000000000000, 00000000000000110000000000000000, 11111111110000100000000000000000, 00000000011111110000000000000000, 11111111101101010000000000000000, 00000000000110000000000000000000, 11111111111111010000000000000000, 11111111111011100000000000000000, 00000000011001100000000000000000, 00000000001010000000000000000000, 11111111111110100000000000000000, 11111111111100100000000000000000, 11111111110111000000000000000000, 11111111110101110000000000000000, 00000000001011100000000000000000, 00000000010110010000000000000000, 11111111111011110000000000000000, 00000000000111010000000000000000, 11111111110010010000000000000000, 00000000000001110000000000000000, 11111111111101100000000000000000, 11111111110001010000000000000000, 00000000000101100000000000000000, 11111111111010110000000000000000, 00000000000110010000000000000000, 00000000000100100000000000000000, 11111111110001100000000000000000, 00000000000110010000000000000000, 00000000011111100000000000000000, 11111111101011000000000000000000, 00000000011111110000000000000000, ;
