memory_initialization_radix=2;
memory_initialization_vector=00000000001001100000000000000000, 11111111111110100000000000000000, 00000000011111110000000000000000, 00000000011111110000000000000000, 00000000011111110000000000000000, 11111111110101010000000000000000, 11111111100000010000000000000000, 00000000010011100000000000000000, 00000000011111110000000000000000, 00000000000001010000000000000000, 00000000011111110000000000000000, 00000000011110110000000000000000, 00000000011111110000000000000000, 00000000011111110000000000000000, 11111111100000000000000000000000, 11111111101101000000000000000000, 11111111100000100000000000000000, 00000000000111000000000000000000, 00000000011111110000000000000000, 00000000011111010000000000000000, 11111111111000100000000000000000, 00000000011111110000000000000000, 11111111101001110000000000000000, 11111111111011000000000000000000, ;
